27
04
0b
04
f7
ef
00
f7
ea
f4
01
02
29
0c
f3
fb
23
15
07
0d
f7
09
31
08
de
06
0a
0e
de
18
1f
02
e7
05
18
dd
09
f6
e2
07
04
12
f5
05
f0
f0
ff
e1
dc
f8
e7
fe
e1
fd
0a
05
02
fa
ee
16
1a
00
f4
14
1e
11
04
0d
fc
1b
0d
09
1a
f7
f5
0a
1e
04
fc
0f
26
04
ff
11
fc
f9
03
f1
01
f3
14
e3
e8
f7
f4
2e
ff
fd
04
0d
06
f7
06
e9
e6
ef
e0
fd
db
eb
17
24
fa
fd
e3
10
f0
ff
07
08
f4
f8
fa
f9
f5
fb
08
f8
fe
07
e1
e3
0c
e2
eb
09
fe
17
04
14
fb
02
07
f9
f4
d7
e9
06
f5
f1
07
e2
0e
13
11
0e
13
0d
08
10
19
03
1e
14
03
12
fc
12
02
0b
18
20
08
ee
e1
f1
fd
23
f8
e7
16
0c
f3
02
ee
08
f8
1c
06
0c
fe
fb
06
19
08
f1
02
f9
12
11
12
e2
f2
09
e3
05
ee
ed
f4
fe
13
11
f7
01
2f
05
ed
f0
04
ea
12
09
fe
ff
20
ee
01
ee
ed
f6
fd
08
de
cd
fd
1c
f8
1b
f7
0c
18
0b
fd
ff
f9
08
e7
05
ef
16
e7
02
fe
e5
01
f5
02
05
2c
ed
eb
0d
12
d8
fc
f8
f0
fc
fc
13
f6
05
12
de
02
07
ff
0b
e4
0d
f9
e9
ed
06
02
08
05
ee
fd
fe
0f
ee
f4
ec
ee
fc
29
dd
01
00
2b
09
0a
ff
0d
ef
e6
11
04
16
ef
00
04
14
fa
10
ee
ff
1b
f8
08
ef
e7
fc
fa
f2
f4
1c
f5
fe
03
04
09
ef
16
0f
01
0a
db
ee
e8
0f
05
f8
ff
f2
fa
f8
05
fa
d1
d9
0f
11
22
0a
e0
f4
f6
ef
07
17
fe
fb
e3
0e
fc
09
03
1d
fc
fc
1c
09
15
07
f9
ff
fc
10
e3
eb
fe
1f
29
06
e3
fa
03
20
07
fc
fd
fc
02
14
fa
f7
f5
cf
22
f0
f4
0e
ea
eb
1e
08
09
dd
ea
17
ef
f1
e6
f7
14
e2
01
05
f2
0f
fa
f6
11
e4
00
2d
01
f3
f7
e9
f0
fe
e2
db
1f
df
f9
e3
f7
24
d1
0e
00
18
e1
00
f8
fd
f1
f4
fe
f3
fe
df
f1
27
06
0d
f4
0a
09
f5
e1
f2
15
01
e2
18
fd
f7
f8
2f
ee
0f
ea
08
0d
11
fe
f4
0e
f5
0a
f7
08
02
08
e5
ef
1f
08
04
11
f7
0f
fa
01
ff
f6
05
03
16
fd
fc
06
0c
18
f9
ff
07
0c
05
f8
03
fd
fc
0b
fc
e9
0b
fa
08
00
0d
06
26
03
f7
1d
0d
16
20
fd
ef
f5
ef
ec
0b
fc
08
03
f1
0b
fb
08
e6
25
09
07
f5
06
f9
f6
0d
f2
08
1b
23
f3
0d
26
17
ff
f5
e3
fb
09
08
e2
0f
05
08
17
fa
ff
1d
11
d1
dc
04
fa
20
e1
e6
f6
ed
f9
f7
e2
df
ee
f3
fa
16
2a
0b
e8
fb
16
15
fc
2e
fc
06
12
0d
0c
f2
1a
fc
01
0f
0e
08
fa
2d
25
28
13
f7
ff
11
19
1f
f7
09
00
fc
01
1e
07
fa
ee
05
15
10
15
2a
17
09
10
16
0b
fe
ee
ec
18
11
02
f9
2d
fa
d0
0b
0d
ff
13
ed
05
06
0e
15
ee
0d
14
13
23
fc
ef
fb
09
10
11
06
14
f0
0a
f8
18
fe
1a
23
f5
dd
05
f8
f0
fc
24
00
32
20
ff
19
0d
1f
ff
f9
fb
03
0e
17
fe
2c
fe
23
20
0e
ff
0e
dd
02
04
1d
02
fc
e4
fa
fb
32
e0
03
e2
00
11
20
08
ee
24
ee
03
08
ef
0c
ef
f7
0d
f5
03
f5
ff
26
fd
05
06
06
f4
e3
1a
1d
1c
05
02
29
f5
f8
0b
03
22
fc
ed
08
0e
1e
08
18
16
0f
d9
ed
f3
05
01
18
00
fc
0a
10
11
da
14
eb
05
f4
1a
08
09
ee
10
03
fa
38
fd
05
26
ef
1e
ea
fe
14
0a
f9
dc
f3
f9
f7
fc
f6
f5
f2
fe
03
f0
0c
fc
0d
f7
fd
01
09
1d
09
f8
f8
e0
06
0e
0e
13
17
ed
17
ed
fd
f7
f6
08
fc
e9
05
0b
08
f6
13
fa
f4
f9
f9
03
09
f8
dd
0e
19
f3
12
ee
04
12
dc
18
0e
f1
fc
ee
12
ef
03
01
ef
08
06
ed
f3
e2
f9
05
fe
1a
f2
f9
02
09
f4
00
f7
03
fd
1a
f6
0e
12
f4
fd
01
0e
13
f1
08
ea
fc
fc
03
11
e3
d8
ef
f7
1c
fb
fa
f9
21
0e
f4
ff
1a
0e
1d
2a
e6
f3
11
e5
0b
f7
fb
fb
11
fa
f4
02
17
f7
00
10
f4
ed
09
13
0d
f6
fa
f6
0d
00
fa
f0
f2
f9
07
f6
00
1b
14
02
e9
e4
0b
f0
f0
f4
f5
f0
00
fa
13
fb
fb
f8
eb
fc
f7
ff
fc
f4
f3
e4
f6
15
0d
01
f3
f3
f4
f6
f4
10
fd
19
ff
f1
fe
11
0e
ef
29
f7
05
0c
0c
18
0d
13
ff
07
e5
00
09
1c
e7
14
fb
f8
11
09
15
0a
0f
21
d1
ee
02
14
0b
0c
1f
0e
0e
05
06
01
00
10
0a
0e
13
1a
18
0b
1d
fa
fd
17
f4
14
41
03
fd
f5
0e
fe
1b
15
1f
34
08
0f
f2
0c
1a
14
ec
1e
04
11
30
fd
01
05
08
0c
2d
2b
fb
f6
ec
00
15
13
06
1e
2e
f9
19
00
07
fa
1d
1c
09
f5
00
fa
fc
1d
fb
05
13
f6
f1
09
ff
f3
f7
fb
f0
07
d6
03
f8
1b
eb
13
11
03
0b
01
fe
01
e7
07
07
2c
0e
f9
24
f9
e9
f3
06
e3
ef
1e
1e
1d
10
df
15
fe
0a
1c
10
22
0d
05
ed
fd
ec
03
14
21
32
13
00
fe
ff
03
34
e9
13
0a
2e
f1
f6
df
01
18
06
17
ff
f7
fe
0a
08
10
fc
07
1f
13
0b
1e
14
13
08
0c
fd
0a
28
1d
0e
06
07
1a
f7
05
3b
17
0a
ef
e4
09
f8
0e
0f
f3
02
f7
04
f0
16
02
10
03
0f
e7
0c
f1
05
f8
f2
0b
f9
de
ea
eb
f9
ff
f5
13
32
e7
eb
fd
ff
f7
fa
d8
0c
03
de
ec
11
13
e8
cf
05
04
15
f0
03
05
00
ee
0b
ed
04
dd
13
09
15
e7
12
26
fb
08
12
1f
0d
f9
0b
ed
0e
14
15
fc
e7
e5
fd
03
18
20
0b
00
1a
f5
11
0d
01
ff
f8
02
36
20
f4
0f
fb
11
00
f2
05
e0
ff
e7
12
ec
ed
c7
06
f4
06
f9
16
17
0a
fd
03
03
ec
f6
e9
ff
11
ea
fe
ed
f2
f1
08
00
02
05
ff
0a
ef
15
f6
05
dc
fa
d5
ee
15
1c
0e
fd
da
ee
e7
13
f8
0c
18
fd
e2
03
08
21
da
fe
21
0c
f9
f4
f0
0d
2f
01
f8
1a
ed
06
00
0a
f8
10
13
24
f8
2d
30
e7
1a
02
f6
23
08
0f
01
02
04
fc
f7
1c
04
20
f7
08
16
03
09
0c
13
d4
21
05
1a
13
0e
1a
1b
21
fa
2d
13
2d
29
1a
1c
e5
20
22
09
fb
36
1c
e4
12
18
01
1e
09
0c
d4
12
fd
12
01
f4
07
e6
ef
f5
1a
00
f9
02
f8
f3
24
02
01
e4
20
03
03
f3
f1
09
ed
e5
0a
01
0a
d8
01
11
f8
16
e4
f8
03
ed
13
fd
f7
2e
0d
17
fe
e5
18
02
ef
f9
dc
ff
f4
ff
07
fd
e6
ff
0d
02
de
03
e9
05
00
0a
f1
cd
09
0e
02
18
07
07
f5
e6
f5
e6
f9
df
f0
05
07
f5
f2
fd
0f
00
f5
0b
dd
fd
fb
16
e7
e3
01
17
ee
f9
1a
f7
f7
08
e1
fe
e9
08
1b
09
fc
22
f5
fd
14
f8
ed
14
e8
17
dc
0b
ec
fa
fa
02
18
1b
14
06
00
1f
10
e6
32
24
ed
0f
0b
03
ec
15
06
06
ff
fd
0d
df
20
f1
04
10
d7
02
05
06
0c
05
f1
ef
05
0b
06
24
f0
2f
0d
2b
e2
f8
ff
db
02
05
fd
13
ff
18
fe
26
00
0b
f6
02
08
08
36
0d
08
0b
13
fa
f5
ff
f2
ef
07
11
fb
08
05
06
fb
00
0a
ff
ef
e9
1e
e9
11
f9
15
02
06
1f
10
01
f7
09
fa
21
08
08
0d
23
08
ee
0d
12
17
ec
f4
00
e4
fe
f7
1e
fd
e6
15
fb
f2
07
f6
14
de
f7
f9
e7
fb
25
f6
ce
ef
f6
f5
21
09
e4
1a
01
09
f4
0f
11
f9
03
09
ec
26
0c
ea
e5
f6
fb
f6
d9
ee
01
f2
ff
1e
0c
1b
06
fa
0d
1b
03
dd
11
e3
ed
d5
f5
07
e3
fa
fe
f0
17
0e
0b
0f
08
11
0a
07
0e
e8
19
0b
e9
05
1c
f9
04
f0
0b
03
f9
13
10
1c
1d
20
2f
11
2b
0b
10
16
09
0c
0a
03
1d
05
12
2c
0a
06
0a
04
07
23
01
e3
0e
06
10
32
fb
1a
0c
12
fd
0e
eb
1c
0a
1a
06
08
f0
11
f4
f4
0e
ef
d7
06
f9
03
0a
d1
ea
fd
0b
05
04
e6
03
f2
05
ee
04
12
02
da
e5
05
10
01
ea
f2
f5
06
dd
e2
23
f9
e9
08
f5
14
14
f8
06
04
ff
07
f0
f9
fc
f7
fd
1a
f9
f9
f8
0d
ef
dd
03
e1
ed
01
ec
fe
07
20
0f
fc
f4
0d
1d
fc
fb
04
15
f4
e9
0e
f8
ec
fa
f2
f5
e7
0b
ef
05
da
e9
2c
ff
ed
27
27
25
11
f1
e4
14
06
f9
1e
07
f2
07
07
ef
f9
08
eb
12
f9
14
0a
eb
e3
dd
10
12
f3
1c
0a
28
df
fb
f3
f2
ef
1b
fa
14
13
09
fb
1e
ec
ff
00
f3
f4
fe
d7
07
1d
f9
fb
05
20
08
04
fd
f6
f5
f5
ff
f9
21
fd
ee
f9
fd
e2
27
fc
0a
f9
f7
f2
01
03
03
0c
ef
0a
f5
ee
14
da
1e
0e
02
e8
f3
0b
14
ed
06
14
fb
de
f3
fe
02
f7
ea
d6
d6
1c
e9
11
0c
13
e1
da
18
fa
f1
e4
ec
ff
01
08
1c
1b
10
12
e4
ea
ef
f8
fe
f3
15
27
11
00
13
05
fc
26
f7
09
0c
fc
0f
ef
e7
de
0a
04
13
e8
05
f5
fb
f9
14
f6
fd
10
fa
1c
fd
e8
14
00
04
10
01
fc
e2
f1
1b
13
0e
01
13
0c
07
fd
00
01
e8
1f
02
02
db
ea
fe
f5
0b
e5
01
e1
fd
02
03
1e
f4
fd
03
e4
d8
12
ea
e4
0b
22
f7
f7
fd
f7
06
04
01
fc
e9
f0
ff
e7
fb
fd
07
08
fd
04
f7
f5
f6
08
05
eb
fe
fc
f2
f7
15
f3
18
f1
1f
f4
10
0f
e4
0f
dc
ff
0b
0d
eb
f7
fc
08
f5
09
05
1b
15
fb
02
f7
e3
0c
e9
f1
0f
fa
ee
f8
d0
0b
18
f9
01
22
fa
12
f6
e2
08
fe
fe
08
d7
12
10
18
0d
fb
f1
07
eb
08
0f
ff
f9
05
ff
ff
11
fb
fe
0b
02
f7
10
15
ff
ef
db
f4
0f
dc
e9
ef
08
ef
f2
ed
06
f9
08
ff
21
f6
06
f8
0c
d9
f4
f2
05
02
f2
11
08
f2
1b
fb
ec
e4
21
fe
f4
f7
05
13
fb
02
f0
f9
16
12
f5
0e
00
ec
13
1b
fd
f7
1d
f5
ed
e8
19
02
e5
fe
12
0c
f2
f1
e8
f9
fe
fd
fc
05
fc
01
0f
15
ec
fd
fb
f2
fa
08
f2
2b
ff
fe
17
f4
db
10
07
00
f3
fe
fd
01
fe
0e
f3
fd
1f
f9
25
ea
01
f6
f5
fd
02
17
ff
f8
fd
13
f5
17
ff
ec
fe
07
d2
18
03
1c
f9
1a
e6
0a
fa
f7
01
f5
0a
0a
ea
f8
f6
e7
0f
f0
ff
ef
fe
fd
fd
04
e8
00
e4
fb
0a
f6
eb
17
0a
ed
d9
14
f3
e5
0a
f6
02
ed
f6
fe
13
03
fd
16
fd
0a
f7
05
09
0d
f6
f9
fd
ec
e4
fc
ff
ea
f7
f6
00
00
02
ff
00
ff
fc
0a
e7
ee
01
0f
2b
ee
f4
01
00
f8
fe
fd
fc
e5
f9
10
f2
e5
ea
f0
02
0f
09
2b
ef
09
e9
fd
1e
00
18
13
30
09
02
0f
0a
0a
f2
e0
0a
14
1e
03
05
dd
08
e6
13
ef
f3
f4
1c
15
f5
e1
10
0c
08
11
fe
f2
f8
fe
ef
f7
01
0d
e0
06
dd
1f
07
ef
0d
01
05
28
e3
1c
eb
18
0b
03
f6
fd
f7
e6
0a
f8
21
e8
33
fd
03
ed
20
04
0f
13
15
04
2a
f4
e6
13
f1
07
12
fb
f1
f3
fc
07
f4
0a
17
f8
17
08
f0
e5
04
02
e7
11
09
fb
f4
f8
e6
e7
f2
f5
0a
10
ff
12
f7
0c
07
fc
f3
09
ff
e4
09
12
f8
e3
ff
f3
f9
17
09
03
0c
00
f5
cf
f5
f7
0c
fc
14
21
f2
ee
e2
04
03
fa
ea
f3
0f
ed
14
08
12
ef
fa
05
f2
0e
09
f2
0c
05
0a
f1
f1
f3
e0
07
ef
18
e7
eb
00
e6
f7
23
1e
25
06
fa
ff
2c
f7
f9
e6
23
fe
f1
01
f8
f5
fd
1a
fa
f6
33
f8
0b
f6
0f
fa
ef
eb
fe
e7
14
e7
09
03
0e
0d
fb
17
fc
f9
f6
06
17
e4
04
eb
09
f7
fd
ee
0d
05
e1
13
e8
15
1a
12
07
fe
01
12
dc
18
f0
06
00
13
1e
f7
0a
0d
e7
f4
fe
f4
10
01
13
07
04
0a
f5
06
04
01
ea
09
d6
e5
d3
ef
06
04
ee
13
fd
fe
e5
fe
13
09
dc
02
20
fd
07
24
0f
18
19
07
0b
1c
fd
f9
07
0c
16
f8
27
1b
10
03
0e
1a
05
1e
19
24
0a
fd
27
2e
f4
0f
fe
06
f5
0f
16
0b
0d
1c
13
fd
12
f7
04
ff
11
f7
0e
16
21
0e
0b
03
0b
0f
0b
05
fb
e7
e3
f4
fe
fb
f5
fe
f5
05
30
e5
f4
0c
10
e1
f5
13
07
02
e4
1a
e8
f1
09
13
14
f6
0a
e9
eb
02
28
09
f8
ef
d9
fa
0a
f4
f9
11
00
13
e7
fe
0b
f9
0f
ff
e1
d7
f5
f5
05
fc
15
f6
f0
1c
05
0f
06
06
fb
ff
e6
1d
f1
f5
f1
e6
fa
f6
f2
07
08
07
f6
f3
f7
01
14
eb
ed
05
f4
00
f6
17
02
05
0c
06
e3
08
0a
18
f4
fc
f6
29
0a
27
0b
22
ff
f9
03
11
10
f4
0d
13
e4
e4
fe
21
ee
27
19
04
22
2d
f1
02
f8
0b
0b
1f
16
ff
03
0a
f6
26
1b
0b
01
0e
16
1e
14
ef
fd
0e
09
fe
f3
ed
f8
0a
f0
f0
07
2d
fd
16
0b
03
0c
fb
1f
ee
00
04
1c
0c
04
fd
05
f1
11
0c
0d
0c
02
ec
0f
09
0a
26
01
f9
06
19
f5
fb
ec
fd
09
18
0b
f8
16
dd
f6
f2
f9
0f
ff
ff
11
02
f1
0e
f2
0e
f8
fd
01
06
fb
07
00
22
00
06
f2
ef
e9
ff
ea
04
05
16
10
f2
0c
07
fe
ff
03
df
fc
fa
f5
14
e8
e3
f9
0f
0f
f2
02
f7
f8
26
1f
05
06
ff
35
06
10
03
10
44
26
05
15
0d
fd
12
0f
05
0a
0f
22
13
e8
f9
15
29
fd
18
04
0b
fd
0b
11
16
e9
13
10
11
f3
07
ec
02
18
38
06
e6
01
ea
00
ee
e7
03
fc
0d
14
1b
17
fd
eb
03
e7
1b
ec
00
ff
14
fe
13
e7
13
17
dc
08
f8
fd
ec
05
04
15
f5
e8
ef
f2
0c
fe
06
dd
f7
f2
08
fa
ef
ec
07
0d
f8
09
16
e6
0c
09
1b
e2
de
d7
f1
02
fb
03
03
fd
fa
f9
f5
0e
16
f5
01
fc
0c
f0
fb
19
f5
f5
0d
f9
f0
fe
ef
fc
e9
ff
dc
f1
0a
06
0d
f9
23
1e
df
ef
f5
ec
ff
f6
11
f9
26
c3
dd
f8
0a
f7
f1
fc
01
07
eb
fe
0a
df
03
ec
02
f8
07
f5
e7
1a
d4
fe
02
01
18
24
03
fe
e9
f5
0e
13
05
07
f9
d1
fb
ff
f8
f0
0e
16
f0
00
f7
e4
0c
19
07
0e
f9
02
dd
0a
1a
04
07
f2
e8
0d
de
fb
fb
df
03
f0
0f
08
f4
07
ef
f9
d9
0d
06
d5
fc
08
f4
03
16
ff
0e
0f
ec
f3
fc
f0
0a
ff
07
e3
f2
02
f3
16
f3
04
15
03
ea
11
ee
04
0b
e6
f6
f3
ff
0d
f2
04
f3
13
02
10
e5
fe
09
08
fd
f0
f8
04
11
dd
21
ed
f1
0b
fb
00
ef
f6
04
04
12
00
1d
fa
ef
fe
e2
23
24
06
1c
f4
04
17
fb
fd
f3
ea
15
f5
1e
07
1b
1a
01
e2
f8
09
f3
0d
f0
05
08
05
e5
0f
fa
10
07
ec
0c
10
e2
fb
da
05
e7
02
09
13
f6
17
14
2b
21
15
1d
22
02
fb
f7
fe
0e
1d
1d
0a
f3
0c
24
11
04
16
08
1f
e7
00
11
fd
00
20
fe
f8
20
f2
18
1c
17
01
f8
07
fb
d0
07
06
30
fb
1d
fb
e7
f8
16
0d
1c
14
f6
04
fa
02
12
03
f5
f3
1c
f0
13
e1
04
fd
fe
fe
1d
05
fb
ee
04
f1
f2
f7
0f
02
ed
f9
00
e0
00
e1
f5
c8
ee
ff
f1
09
f8
ff
f6
00
f2
0c
02
e5
0d
06
f8
0c
f2
f0
06
05
18
0d
ff
fa
03
0f
0c
1a
e0
13
0c
08
06
fc
2d
11
fa
11
03
f3
01
f6
f4
1e
06
1d
09
19
20
07
12
ef
f9
12
16
1a
ff
02
1c
1c
fc
09
04
e1
ec
1c
09
1c
06
09
02
07
fa
f7
20
fb
d4
ea
09
ef
fc
0b
fd
0a
f7
f9
15
06
0a
01
0e
05
02
fd
0f
f5
01
21
03
11
f0
13
20
12
fd
10
11
04
fc
07
f7
11
ff
ee
f5
07
f7
f3
02
ec
02
f0
16
01
0e
f5
e4
e6
e9
f3
11
fa
0c
18
fe
ee
d2
0a
e0
2d
fa
fb
f7
ef
15
fe
09
07
da
fb
0b
06
17
23
05
04
10
06
ee
e3
fb
0a
fc
f8
e9
0f
c7
ee
1a
23
ea
f8
2c
de
11
12
17
0d
f1
eb
15
ed
07
fe
06
15
14
14
ef
13
0c
15
e2
f1
e7
06
1b
fa
0a
e4
09
09
f5
fe
0b
08
ea
ed
fe
fb
e7
13
fd
fb
f8
05
eb
03
07
df
f9
f0
06
0e
e9
02
0e
f5
e5
1e
e0
fd
fc
07
ef
0d
fb
12
03
e7
df
08
fc
fd
18
eb
ff
07
e8
17
07
fd
fe
f6
10
05
ec
02
f2
f2
17
17
07
e8
f3
08
02
02
15
e7
0f
fb
ed
f7
0a
cf
f4
10
12
eb
07
0f
e7
01
e9
08
f8
0a
f7
03
0c
ed
e7
0b
f6
17
02
0a
ea
0b
e7
ec
fa
1d
00
08
07
ec
07
fd
fd
1d
10
eb
10
13
03
f4
f5
f5
f2
22
19
07
1e
ed
16
01
03
f6
0f
0a
11
08
fd
0b
05
02
0c
0b
0d
f4
f5
f7
0e
0e
06
0b
f0
00
05
10
16
0b
01
05
0d
0f
f7
f2
fb
0f
07
22
1e
f9
08
fb
f9
e9
ee
e6
fe
f7
da
1b
03
fe
1a
20
09
14
fa
eb
04
11
fb
fa
ff
10
ca
f1
22
f6
0f
12
fe
03
10
fd
f2
e7
ee
0a
e4
f4
e9
f1
ed
22
0c
fa
fc
12
d9
ef
01
e3
ed
e0
e6
f2
fb
f6
ff
fe
f8
f9
19
0d
01
ff
11
eb
ff
19
ea
0b
03
d9
fa
da
e7
17
1e
10
e5
ee
0c
11
e0
1a
07
f9
0c
19
f8
df
0b
fe
dd
0c
0e
0a
fd
08
0a
ea
fe
12
e4
fa
17
09
02
0d
03
09
08
fd
03
fa
f2
fb
01
02
16
e9
e5
1a
12
18
0c
ef
f7
0e
eb
fb
23
1c
1a
06
dc
f4
10
0f
fc
0a
e9
05
d8
ed
f0
17
ec
25
0b
ff
f1
0d
17
f3
02
04
0d
f7
0a
fe
fe
fe
0c
f0
01
04
fc
24
f5
f8
01
05
e5
fb
0c
e7
fa
0f
22
f4
ee
f1
f8
f8
de
f3
05
f5
e6
12
0a
fe
02
fd
11
03
f2
de
1b
10
ed
eb
16
f6
02
0d
fe
ff
11
04
f5
f2
e1
fc
ee
0a
02
fb
fd
ce
fa
07
21
e5
00
03
ee
f1
fb
1f
fc
fe
23
e2
21
ec
fe
0c
d6
05
0b
fe
f9
0e
11
17
02
fe
0a
f2
17
0e
e0
e1
ea
13
0c
f1
bc
eb
06
f5
10
e7
e8
01
df
16
1c
f1
04
04
12
ec
05
08
fc
fb
09
e2
0a
00
ff
00
05
1c
00
f4
db
ff
0b
fc
1b
19
f4
28
00
14
f7
0a
f6
27
07
12
14
fc
02
10
01
0d
1a
0a
0d
05
24
15
10
ed
ff
17
e9
16
12
ef
12
19
32
2d
f2
e2
27
09
ed
20
06
ff
0b
13
eb
0f
fd
01
25
f2
fe
e8
f8
ef
ed
08
e4
ec
ed
17
10
19
fa
05
0e
f2
0c
f1
d3
00
f9
07
f6
f7
00
f9
eb
fb
ee
dc
09
15
19
f4
e6
02
15
fa
f0
0b
05
fb
ce
fa
f3
03
06
fd
f3
e9
f3
f4
f4
e3
f3
fd
e1
f8
10
ea
f8
10
10
ed
f3
16
0d
ff
f6
0c
f1
f8
01
eb
18
f5
f8
f9
03
0e
ec
fe
00
03
f8
04
03
fd
1d
00
f7
e7
10
f2
e3
fc
02
03
0b
00
ec
fd
22
04
03
f6
08
09
d5
06
00
14
fb
2d
13
e0
0a
f3
f6
e2
db
f4
f1
fb
19
0c
19
e5
0d
0e
12
17
05
e6
da
17
0b
10
f7
f4
fc
fe
fb
fd
0f
17
e7
0f
f0
f6
fc
0e
fb
16
f0
ff
22
f2
05
0d
06
06
ce
f9
17
e4
0f
0d
0b
eb
f6
01
ff
00
12
f7
ff
ff
0c
04
fa
f5
f5
ed
ef
10
23
12
fb
e2
fc
ee
19
fc
f9
eb
d8
d9
04
fa
ec
f8
08
14
fa
f3
f6
f5
fa
04
01
0a
16
1e
eb
f0
f9
f8
f4
14
ea
e5
fb
15
fc
0b
fa
f0
f2
1d
14
03
e9
1b
09
f9
ed
f5
0d
07
0b
02
11
fc
01
19
f6
0e
06
e8
f7
e6
ed
f5
f5
19
f9
27
14
1f
eb
04
fa
17
d9
0f
f8
e4
16
ff
0a
07
09
12
04
07
f6
fa
09
05
10
0b
e5
ff
0e
03
17
03
02
f1
1d
09
27
10
fd
18
01
11
f7
f3
05
0e
f7
f1
f0
00
fd
02
fd
15
09
f0
15
00
07
0e
e7
ef
04
f0
0f
06
27
f7
fd
00
1c
f3
13
0b
1f
20
02
05
ff
05
eb
f5
f9
11
17
04
f3
12
e8
e9
de
ff
e8
09
d8
05
f3
2b
f6
d3
f7
1b
f5
da
1e
03
05
17
00
f9
cc
06
f3
ef
17
04
07
09
f5
e7
fe
13
0b
fe
11
24
0d
10
ff
fe
e3
fc
fd
f2
ee
f6
ff
f5
f5
01
f1
22
f5
06
2b
ef
e4
0b
fe
13
0e
07
f9
e8
1b
e8
e0
10
f9
fc
f7
0c
dd
f0
08
02
f0
fd
d8
05
f5
ea
22
07
10
ee
35
1c
fa
f6
d0
fd
e1
ed
1b
e3
21
07
1a
12
0f
04
03
f6
f1
29
fc
fb
f3
fb
f0
25
ef
0d
03
fd
fa
37
eb
00
2a
10
10
0a
0c
0d
f3
06
e1
fc
16
09
06
05
0a
e8
13
06
fc
ff
06
18
19
f8
12
ef
08
fe
0e
17
f0
f2
ff
e8
fa
f4
fa
f3
45
11
10
f8
ff
f6
fc
fc
e1
10
fe
1c
02
f3
ec
ee
00
04
19
0c
0d
1e
12
f0
e4
09
09
f7
d6
fc
1a
f7
09
ff
f4
e4
0d
fc
0e
f6
06
04
11
ef
fc
06
ef
07
17
fc
db
e4
0c
0d
09
09
f1
f5
e3
fc
ef
f8
e0
de
1c
dc
2f
dc
e3
f8
07
21
fd
f4
ef
fc
cf
03
f7
0d
de
e7
11
01
e1
e3
f5
fc
eb
1f
ee
09
0e
17
1a
09
f8
f7
e8
f6
28
ec
06
09
f2
ff
20
e9
f2
f9
fd
fa
f5
fb
17
ed
00
18
1b
1a
1a
e6
08
1e
00
02
fd
fb
1d
25
fb
00
ef
df
fb
07
f5
23
1f
2c
13
17
19
1c
00
09
0a
f8
1c
11
ee
09
e3
f1
f2
f5
0c
fb
10
f4
25
f9
00
08
f4
18
ff
ff
ff
04
f0
09
15
03
ee
19
ef
04
ec
14
09
01
01
00
08
f0
f5
01
13
23
0c
28
ec
fc
09
ef
1c
03
09
f7
03
33
de
e2
f0
e4
f1
f2
f0
0c
e8
02
07
09
03
f2
f3
ef
0d
04
fa
e9
02
07
12
08
e9
05
f7
df
f1
e6
01
f1
fd
10
02
0e
20
f6
08
e4
f9
03
fc
25
08
ef
11
e8
0f
16
fc
22
f3
f9
f7
eb
05
f6
ff
ea
2b
1e
1e
ee
04
04
e6
01
dc
06
06
13
ee
f9
08
15
ff
07
08
09
ff
18
ef
f4
0a
fc
ea
16
1d
fc
ec
05
f0
e0
ff
0c
03
0e
1f
fa
1c
02
21
17
07
fd
ec
e6
22
ea
fb
fe
ec
fa
f6
d5
00
cc
fa
00
ef
18
05
fd
0a
da
09
03
0d
14
04
14
e9
e5
f3
f5
da
0a
2d
ee
06
d4
f4
ef
05
e3
06
04
fa
f0
f0
fb
f8
fe
e8
05
ee
ee
04
04
06
00
f0
01
05
ee
02
1a
1d
e3
0e
ff
e7
fd
fa
12
f1
f0
f1
01
17
1c
0a
f3
12
f9
df
11
03
10
fa
13
15
ff
e6
fa
06
ec
ff
eb
18
ff
fa
ff
24
f7
05
f1
fa
2f
0b
e6
fb
d6
11
08
0c
06
0f
0c
16
ee
05
f2
fb
11
0f
f1
0a
00
e8
fb
fa
09
f7
03
11
f0
03
04
07
f9
f6
02
05
08
d0
ee
f7
1b
01
11
04
f8
e6
f5
0a
fc
e0
1e
12
13
fc
f3
1b
20
0f
fc
0b
2c
fd
f3
eb
20
36
00
ec
ff
1a
00
f1
00
19
11
f6
17
12
f3
f9
18
0f
fd
02
0d
ea
13
2d
0b
07
17
08
e2
17
04
00
02
00
0b
0a
03
f9
f7
1d
de
12
11
00
02
fa
02
0f
fe
16
1e
2a
1c
ef
fc
f0
1a
19
04
fa
03
01
21
0e
00
fd
fa
25
fb
fe
09
fb
1c
2b
19
04
12
f7
11
fa
fa
0d
0f
0f
07
f3
ff
e5
0c
00
f2
09
03
0b
e5
eb
e6
02
02
20
00
11
e2
fe
01
e7
f7
00
fb
00
02
f2
06
f7
09
e9
f6
f0
16
1f
0a
16
0f
f0
fa
dd
f9
00
df
f1
04
04
e8
16
f8
ee
0f
ef
fc
df
f3
e7
f7
f6
ee
f2
10
fe
e1
f2
0e
f7
fb
e4
e8
0e
05
ed
0a
0e
fd
ff
06
15
fa
14
f9
dd
12
05
19
e6
02
14
09
06
0e
e8
fd
e9
e0
fc
fe
02
fe
03
00
e0
f5
fd
eb
fe
1c
ec
e5
e9
24
08
dd
0c
28
0d
10
eb
1f
03
fd
05
15
05
ec
ea
ff
0f
fb
f7
00
19
ee
f9
12
0e
00
00
f5
f2
2a
23
e3
21
f7
14
09
1f
24
f3
0b
24
fb
02
16
09
09
f8
06
0b
ce
1b
ef
ed
35
0a
1b
f6
f9
28
f7
fb
0f
03
18
0a
33
17
28
e0
20
13
fc
08
02
16
f9
00
0b
ef
15
fe
0b
f4
14
fd
01
0e
13
06
f3
f6
01
f0
0f
ee
f1
f0
1a
0f
d9
f5
0e
f4
fd
ec
f1
04
e1
fb
17
f9
14
07
f9
13
2d
07
ed
0d
e6
1a
f0
ee
d5
0f
e9
ea
ea
f2
0f
11
07
1b
01
fd
12
ff
0b
07
f5
00
0d
fb
e8
02
ec
04
14
f4
d5
01
fa
f2
f1
04
0a
fe
22
f9
fa
ea
1f
09
02
25
06
f5
02
05
28
f9
f4
f7
e8
e5
04
f4
16
10
07
08
11
d8
14
14
09
01
fc
0b
fe
14
e4
f5
f6
04
f0
06
eb
f0
19
f1
f8
f9
19
ff
ef
0b
fe
e8
da
00
0d
f2
f0
f6
04
e2
f7
03
e4
f0
f5
03
ee
ff
eb
ff
ea
02
fc
ff
02
04
3e
e5
f6
1e
f9
0a
e8
0a
f2
03
ff
1e
da
fc
ec
0b
f6
28
f8
18
e6
e5
ee
e2
f6
f5
e3
01
0b
05
f1
04
04
ee
03
f9
fd
fa
f7
09
e2
23
f4
03
03
da
ef
00
09
0e
f2
ed
0f
fb
fa
02
09
fb
fb
f4
04
1b
06
fa
0d
19
20
e9
fa
03
e3
08
18
f1
f6
07
03
0e
e8
1b
fa
e0
18
d1
05
14
05
ff
10
15
04
f6
0d
1f
e5
03
1e
fd
06
ed
0d
ee
0d
00
f7
0f
02
eb
ed
08
19
df
e0
fa
1b
ed
2e
12
1f
f1
18
f1
f2
0b
12
f2
0d
f3
f7
e8
00
21
ed
ee
e5
17
11
0b
e1
09
01
05
16
01
d9
13
f3
04
ec
e3
e5
f2
e3
eb
f5
09
fa
f1
04
04
f0
f8
e1
f9
fa
0a
f1
1d
10
f3
02
14
ef
e6
05
1f
fa
08
00
1e
0f
19
f7
ed
f6
0f
10
f2
fb
14
1c
fd
f9
0c
12
f8
12
ff
ec
05
22
0f
36
fe
09
1b
fc
00
f6
2a
f1
fa
0a
23
1a
24
08
01
09
ea
05
e3
fe
12
e5
16
0b
31
09
07
02
07
ea
0a
0b
09
0b
0f
ec
27
1e
0b
01
fb
fa
0e
07
f0
03
ea
05
f6
fa
fc
df
05
f5
00
0a
00
ef
07
01
07
f8
06
05
ef
e5
fd
e1
0e
16
17
d1
00
19
ee
ec
09
01
e4
e7
ff
f4
02
0b
e0
e4
02
0d
02
e1
fe
fc
f6
ea
16
17
02
fb
12
02
05
f1
01
01
10
0c
0f
fe
17
1f
fa
17
12
dd
1c
ff
19
1c
09
0a
0a
31
14
f7
fa
13
23
ff
13
18
f4
f2
f9
16
f6
0e
15
02
0d
f7
20
f3
df
fd
06
24
0c
03
0f
1b
0e
f1
eb
12
20
0d
39
1a
10
0e
fc
0d
15
16
20
2e
1c
1b
1d
12
ff
21
01
0a
f9
0e
0d
36
1c
fb
f4
1b
11
0e
0f
06
f7
2a
fa
13
0b
09
04
16
19
15
09
f8
11
0c
12
0a
f7
0c
1d
07
f4
ef
e9
f5
09
ec
fe
f6
01
08
f6
25
03
10
03
fd
ec
e2
01
0f
e2
15
f8
f7
ee
f1
ff
07
06
f0
fe
0e
f3
f2
f2
0b
02
08
f4
f4
f3
03
00
e2
10
eb
01
f0
e6
0e
19
11
10
13
f9
16
04
f2
f8
f8
00
ea
f0
06
f4
01
09
1b
f2
05
f8
07
04
fc
f4
03
22
10
0e
f2
f7
f7
0b
03
eb
16
e7
f7
e3
f2
ef
06
15
04
e3
e8
0e
02
f3
e2
17
10
2c
0f
f7
fc
f0
0c
25
01
f8
e7
0e
0d
e8
11
15
f6
fb
f0
12
f5
01
f2
f5
09
e9
ea
08
16
ed
ff
0d
07
05
fd
08
d7
f9
fd
1c
fa
fb
07
fe
18
0e
05
ea
ec
f7
fd
f1
0d
f2
fd
10
e6
f0
f7
06
05
1a
06
04
df
02
da
00
02
f5
ef
05
f7
e6
04
1a
f5
24
0d
db
05
e9
e7
f9
ea
f5
fe
08
15
e4
e8
01
12
fc
0b
f4
07
f1
0b
f0
08
eb
f5
e3
f9
ed
11
01
ec
e7
f0
f3
f5
fa
16
17
ec
10
0c
02
f2
f3
0a
06
f7
21
17
1e
ed
05
f3
fe
ea
ea
f4
ea
06
f1
f8
e9
0d
ff
d7
08
10
0b
0f
f2
fe
06
e6
2a
f8
ed
ff
f8
e8
0b
12
10
fb
e7
e2
0b
f9
01
08
fd
f7
1f
0f
f5
18
03
02
fb
fb
f0
fa
ef
ec
fa
15
02
ef
f9
02
10
fb
03
d6
04
e1
05
fd
10
03
00
10
08
0b
01
ff
e6
00
f0
09
ff
f5
0a
e2
ed
02
01
f6
05
02
00
20
e5
05
0d
f5
f1
1b
fc
f0
05
01
eb
16
f1
0c
fb
f1
ff
fe
eb
27
09
15
06
f0
f3
22
00
1f
1a
05
1e
32
ef
f2
f9
f0
0a
0e
f4
11
04
f2
f8
e4
06
14
f9
08
fa
26
22
1c
0f
ff
06
f8
13
0f
1a
02
ff
fb
ff
11
03
06
eb
f2
e7
e1
01
0f
e6
ed
08
09
08
e8
e7
e3
1d
2d
0b
0f
f7
ff
e7
fe
04
1b
0d
ff
fc
f7
0f
09
db
ee
e7
fe
0b
0b
f1
0c
13
17
0b
e8
0e
f9
0b
d8
06
f9
12
f8
e4
fa
