fe
e4
f8
ef
22
fc
ef
fd
01
09
ec
ed
e2
00
ef
e1
fb
f4
22
db
f0
02
fe
1c
ed
fe
19
05
1e
f7
0a
13
06
0a
35
ef
f0
00
f9
e7
00
f4
04
10
cc
06
fe
e4
f7
ec
17
ee
05
05
f4
14
f4
15
f4
fc
ef
f3
06
d6
ce
06
25
0b
e7
f7
03
e1
f8
33
f1
0a
fe
0c
14
15
02
03
f8
fe
fe
dc
03
22
29
22
32
df
e6
25
0e
e9
f7
f6
f2
dc
fa
e3
0c
05
04
06
fc
03
ed
00
18
de
fc
14
06
e1
e3
26
06
e2
d3
e2
20
e8
08
eb
38
e2
10
1e
e7
f4
d1
0f
03
21
e1
14
ed
fd
f6
00
05
09
ea
dc
e3
e7
1f
28
fe
fb
0c
0d
06
05
03
dd
f2
f1
ed
1a
14
14
10
02
0b
0a
17
46
0f
e0
0e
f0
17
fc
e3
08
14
d5
e8
d8
eb
f1
fe
f0
15
1e
06
e2
1d
0b
00
f0
c7
ed
eb
fb
15
01
01
df
08
17
0e
f8
15
02
0e
f3
05
12
ec
fe
09
0c
f7
f4
09
24
f2
fb
05
01
17
11
f1
05
fb
fa
0e
05
08
2d
14
07
14
0d
0d
fc
f7
f8
22
04
08
0b
ec
26
f4
08
ec
28
13
e8
1f
f6
3c
13
f8
00
d3
da
31
24
d9
e9
07
21
4c
23
d3
e4
0f
43
10
31
21
fa
0e
dd
0a
02
02
e7
fd
f5
eb
04
09
14
22
e1
00
19
1b
fb
fb
f0
eb
14
f0
f8
09
01
f1
fe
d6
1f
fa
1d
fc
05
08
2e
0b
00
e3
07
d1
f0
19
e6
15
fc
14
04
fc
01
f2
15
2a
ee
da
17
12
e7
01
28
1d
0d
fe
e0
0d
ef
10
17
f8
2c
07
f9
23
05
04
05
01
02
e2
e9
1c
fb
10
1e
0e
e6
f6
f3
ff
ec
f3
13
ee
00
12
f1
02
db
08
01
03
08
07
03
18
fa
ff
2c
0a
13
12
0a
10
09
1a
01
dd
f5
0b
ea
0b
ed
f5
16
fb
e7
0d
f7
1b
ff
fa
00
19
f3
fa
02
01
d5
f5
f3
09
e9
f5
0a
fe
05
17
2f
ee
0d
0a
0f
08
e6
01
ee
e0
f4
f5
19
ec
f3
0e
fc
0a
e0
ed
21
f1
f3
df
2f
fa
08
12
f8
dc
09
12
e9
b0
e2
22
fa
17
f4
07
f0
f8
0f
0c
fe
0a
eb
22
06
20
f0
2e
0b
e4
16
13
e3
1e
55
19
0a
03
07
02
3d
07
22
f1
3c
03
fc
d5
ee
df
f0
1e
05
d6
08
29
04
36
1f
13
00
10
f3
ed
2e
10
1a
11
09
2e
14
f4
ea
d1
dd
ff
f6
14
01
14
f8
15
ec
14
06
26
28
fd
f0
30
fe
e8
0c
04
2b
b9
f5
38
19
0d
0f
01
05
f4
2c
f8
ed
e6
2d
ff
db
0a
1e
e6
fe
0f
d9
fe
29
12
04
14
e5
0f
fd
de
d9
f3
29
ee
ef
0f
40
03
f3
1f
e5
07
27
f7
0b
06
21
07
09
e5
f9
28
dd
22
0e
e6
19
00
fe
10
11
de
0a
06
24
13
e8
22
dd
e3
04
fa
f8
09
f3
fb
ed
04
f5
f4
f7
02
f8
0a
fa
ee
ec
fe
fb
2a
de
0e
0c
10
fb
2a
fd
e5
f4
1e
29
eb
06
f2
28
fd
0c
27
fb
07
0a
25
fc
14
03
23
f7
00
03
06
11
4b
0e
12
01
24
e2
12
f1
09
0a
f8
f6
f2
ee
fb
13
13
e5
e8
f6
de
e8
0c
2d
07
d2
c9
00
0b
00
25
e7
f7
33
04
ec
ef
f3
ee
02
f3
fd
04
f9
fc
fe
eb
ff
dc
02
fc
12
01
f7
ff
06
08
1c
ec
11
e5
d8
02
f0
07
14
1e
e8
eb
fd
11
e0
13
1a
f9
f3
17
02
16
ff
fd
0f
1e
13
04
12
06
24
14
38
0e
1a
01
fa
03
f8
0b
f6
cd
18
e6
ef
de
d2
ef
09
09
e9
ef
f9
34
00
d6
eb
f7
e8
f6
f2
03
04
0c
02
f7
07
e6
ee
dd
f2
fb
f5
20
0d
f9
e1
f0
e0
f9
10
10
12
13
05
07
ec
46
ff
de
f6
f9
1b
18
d0
03
08
f3
16
f0
ea
f8
08
14
ff
e0
15
12
18
14
f6
e9
24
fb
03
c5
18
10
f8
ff
f3
02
07
06
1f
13
05
0d
0e
0a
03
e9
fb
09
ec
01
2b
f8
13
f1
f8
e1
fe
19
e6
e2
e7
e7
fa
ff
01
e0
ff
fa
fe
e9
29
fc
c6
ff
08
fd
fe
f5
e4
fb
f0
f2
e5
11
e8
2c
0e
18
18
fc
cb
11
fa
e1
09
0e
f2
1c
02
fd
4b
01
0e
f8
20
ec
01
e7
0f
04
fa
fa
1f
fd
eb
f8
f6
0b
04
f5
02
15
03
e0
05
15
1c
22
1e
06
14
e0
ca
eb
27
e7
e4
06
05
e7
f0
e5
e0
f3
17
16
e0
f2
05
06
d7
fb
2d
1c
e9
ca
f6
20
f2
14
de
1b
23
16
da
03
19
1a
2f
05
0e
0b
f7
e4
ea
2c
df
07
cd
23
dd
e6
1f
02
09
0d
09
e4
fc
38
d7
d6
00
1b
17
e4
07
d4
02
16
06
16
14
fa
e6
0d
cb
f5
29
3d
16
19
fb
0e
e5
14
06
f9
0f
11
12
e2
fc
0c
07
eb
0c
e6
fd
0a
ed
0b
2d
e6
fe
fe
ee
00
f8
ee
e3
02
04
f2
0e
fe
e8
ec
e1
df
21
1b
10
1e
0e
ed
f5
fd
fd
0f
0c
fc
fd
19
f9
e0
03
08
f2
e2
ee
15
f2
0f
03
e4
05
26
eb
16
ec
eb
0b
12
12
38
07
f0
1d
27
0c
e5
da
50
01
1f
d5
18
1c
ea
f4
1c
fc
02
e6
00
34
da
12
46
fa
0e
14
da
03
ef
fb
f5
05
11
2e
f0
06
1c
f1
27
d3
f9
e4
e1
1f
14
f2
0a
fc
fc
f4
ea
69
13
19
d8
2a
d3
16
f4
d0
29
04
1d
0b
f1
f8
05
24
f4
01
ea
ee
f5
22
f3
e0
04
11
0e
d6
ef
d7
e0
4e
2d
f9
1a
3e
fc
05
11
f9
02
df
0e
fb
15
d2
05
11
18
fe
e4
d4
f4
dd
fd
49
ce
1e
ff
ff
31
00
f9
f9
0a
ef
fe
ec
3b
04
fb
e7
e1
0e
1a
e6
07
08
c8
e9
0e
13
3f
fc
28
ce
1c
ee
19
14
fb
0b
0a
d1
0b
02
f0
1a
17
0e
06
12
f1
f8
1e
19
d1
19
ec
2b
ff
04
ff
04
ef
06
10
13
f3
f5
f7
fa
ef
e4
15
f5
d9
0d
0c
e8
dd
1c
cd
f2
0d
e5
04
3c
16
20
0b
1a
1c
39
0f
07
06
f1
e5
f9
07
e7
e9
01
ff
fb
06
dc
f2
1f
27
27
0d
1e
e0
17
0b
ed
d9
36
dd
09
f4
e0
da
fa
1e
ff
1e
28
fa
08
0e
0b
e4
27
f0
0a
28
04
01
0c
03
16
f5
fd
f8
ff
12
f3
fc
db
ec
04
15
13
06
0f
23
23
ee
fe
fc
27
e9
f0
24
e9
e7
fb
00
fc
f9
07
f8
e9
09
16
f6
e5
fb
de
07
0c
d0
02
0d
04
34
de
02
09
db
29
15
00
e0
f0
df
1d
05
21
e8
10
35
e9
e9
c2
fa
f1
21
06
28
f5
de
22
e8
e6
fe
ee
15
cc
f9
0d
07
fc
15
fc
e9
ea
05
fc
08
ee
f6
3c
e4
e5
16
49
fb
fd
e3
e3
d9
e4
03
15
e4
21
12
0e
25
be
f3
fd
04
e2
1b
ff
ea
ef
fa
0a
d0
f2
26
0f
04
07
f7
01
2b
f9
2f
ed
f3
0e
1c
c9
00
f4
2a
f9
12
f7
0d
22
f9
e4
e6
fc
ec
0b
fd
15
05
00
ed
ec
02
f2
fc
fb
f7
f6
22
28
02
08
14
f2
ff
df
fb
f2
d8
0f
e1
ff
0d
09
03
f5
17
1c
14
16
25
02
df
08
17
f6
0d
01
04
d4
ed
bf
0b
22
0a
18
29
3c
e2
03
09
fc
1a
ff
0b
e4
20
fc
f4
f1
09
10
df
fd
0b
0b
0c
f6
1d
2a
17
e7
0e
06
d9
fa
20
02
f2
d6
21
11
d4
03
17
f6
06
e9
17
2c
21
18
e9
1b
f0
10
d7
e3
18
f5
ec
fc
06
06
fc
19
fc
04
11
dd
1e
38
2c
26
2b
3f
07
f1
ff
0c
ed
2b
09
00
c1
ea
05
e6
04
0d
e7
0c
24
f2
d6
f6
f6
11
19
d2
ce
35
15
e8
f4
f7
e7
0d
05
16
eb
0b
18
fa
06
15
f5
09
f5
2a
0e
18
12
10
1c
09
f5
fb
f2
f1
e9
01
d6
ff
e9
09
1f
1c
f4
08
1c
14
e5
09
dc
20
d2
f4
0f
05
05
0d
04
f3
ff
b7
45
f9
fd
fa
fa
01
40
d7
08
30
d8
02
03
23
00
03
16
0b
12
05
11
12
1d
fe
fc
4e
08
24
ed
04
00
df
18
ec
ff
f6
1f
21
00
f5
e7
2b
de
19
07
fd
dc
fd
ea
03
ea
ee
20
e7
ea
ef
0a
fc
fb
e5
08
f7
00
e5
0f
fd
42
fe
2a
f3
11
12
dc
fe
03
10
f2
00
0a
db
fc
0c
cc
03
de
f2
11
00
d1
0d
fb
02
09
ec
14
fc
1f
0b
0e
0c
03
14
ce
ef
f4
0a
fb
1f
07
d5
d1
11
13
03
07
f3
f6
01
f8
02
f8
f7
ed
1d
0d
fc
02
f0
da
d9
fd
19
0f
fb
20
2f
42
fd
05
f1
fa
e1
01
23
05
18
ff
f0
fd
ee
0d
f0
f3
01
2d
f1
19
06
20
f0
11
f5
fd
0f
f8
fd
f7
fc
f5
14
09
e1
fa
ff
f0
1a
05
13
f1
0a
eb
ed
22
e2
08
c4
fa
f4
02
04
f1
e1
d3
0a
f0
bd
f7
1e
07
22
f1
f3
05
ff
01
fa
22
30
00
00
fd
ec
fa
fb
e4
ff
e1
0c
04
0f
fe
ff
f9
e7
e1
f2
f9
10
1c
2f
fe
fd
d0
1f
10
10
ed
ed
0b
d3
fb
f7
07
22
1f
f7
fa
e7
0a
e9
f3
ef
fa
08
f2
f9
17
f3
00
e6
e8
2b
e8
dc
e5
fc
fd
07
0b
17
fb
e8
fc
f5
03
1b
f4
fa
eb
08
f8
00
df
0c
03
22
15
e0
04
ec
00
23
dd
11
fa
1b
ee
00
fb
fb
f6
15
11
0c
e7
03
12
13
e3
ef
fd
da
e9
1f
e3
d2
e3
d8
e4
f4
08
0c
fd
ff
c9
f7
0e
f9
d9
09
0b
e5
10
11
05
f9
12
1f
ee
f2
e4
02
ef
f1
1b
f9
f5
e8
02
05
0d
0a
11
f0
e5
ec
