fa
eb
06
dc
d0
ad
13
7f
67
e6
51
25
0d
42
0b
51
12
b5
ec
f8
ca
21
02
4f
dd
d1
f1
50
29
fa
db
0d
f7
e3
99
ce
46
cf
c7
be
c3
37
ee
14
27
06
3a
37
4f
80
e8
d5
0a
ff
1d
33
e6
46
50
00
dd
f4
3e
fd
11
03
ef
17
8e
06
de
ce
01
fb
35
d9
cd
fe
18
a5
27
65
b1
3f
ef
00
fb
e6
17
b9
39
fa
f2
fb
27
07
d8
fe
a3
1c
fe
f5
d6
e3
cf
ed
15
f6
e3
ff
d2
22
e3
1a
44
bd
37
c8
11
f7
17
45
c5
fc
e7
07
f0
f8
